042D
FFCF
0258
0236
023C
FFFC
01F0
FF76
0439
FF06
01B3
0040
002B
01B3
FED4
000B
FFC5
038C
FED8
0202
01D6
028A
03F5
0091
024F
0076
01AF
000E
026C
03F6
026A
0387
FF6B
00CF
00AA
0137
0163
0169
02D0
01C1
FF54
FF85
003C
01EB
000D
FF39
016E
01F2
FEED
FF99
02B8
FEE9
FEF1
0221
003C
0077
0062
FEF6
01D6
001E
0052
FE7A
0187
0046
