FBB9
FCBF
022E
F670
FA16
0382
F893
0375
F91E
0769
FF62
01DF
FE8C
F759
FB01
F956
0184
023A
F8CD
029A
FFBC
FDF8
FE86
0573
00CA
04D3
05B9
F83E
FDE4
026F
F6E5
FD02
FA0E
0531
FD87
06E9
FF61
F809
F774
03F9
FF14
0785
06EF
FB1F
FE82
FBEF
00F6
0528
05E0
0025
03B4
FDEC
FC88
FB4D
FA57
FCC9
03E4
00D8
04F1
F8E0
047F
FD59
0260
0583
05F8
F9BF
FE2B
03AD
00ED
FCFB
0293
039F
0888
FB81
0320
05D3
FB3C
075A
FCE4
FCC2
FE44
07F2
001D
FB24
FE5B
033F
0442
04F2
FAC5
073E
0A07
0303
0673
0533
0896
0843
FB2B
0184
F94A
FCB1
0067
016E
0687
FD37
FEEE
FBD6
0073
FC0B
F9F5
055A
FE24
01CA
FAA3
067C
0702
FA9F
076E
FBB4
0271
FAAC
0838
F96D
0278
FC9E
0434
FF6D
061C
0529
F9FA
00F6
0439
FF3D
0174
FD17
F893
00AE
FEBF
FB86
FD26
0265
054E
026A
0590
0091
F917
0869
F830
0115
0462
0488
067F
F9AF
07B9
0542
0639
FC54
087F
05D4
025F
FB65
FFBD
0841
FBB1
FBDA
FDCA
0705
0230
004B
FA5C
02FC
0181
FD33
00C6
FB9E
0092
056F
03AF
FA7E
0747
0365
FCAA
FB8B
08DB
FD28
0710
02CE
0032
000B
0512
0632
FCE0
06DB
FD6B
0480
FF3C
FEDB
F7F1
047B
F9A8
022E
00E0
00A9
F930
021A
004A
053C
0560
076C
FAD8
FB71
FD29
FAC0
FB5F
FED6
F6AF
FA0F
FF5E
F88D
FEDC
FACE
043B
FF75
FAFD
F85B
0687
0395
F877
052A
FFF2
03F6
FCD0
03B7
FCCE
FFE4
064D
0412
FE90
01DC
0430
F59F
FC38
FA9E
FDFA
0329
04E1
FB70
FDF8
010C
FE45
FEDB
0719
02B2
FB73
02D4
FC1A
060F
0880
FE10
05DE
0066
0267
0193
FC30
FD6A
FD23
FB1E
01B6
FF81
FB59
00EB
FF9B
FD91
FD80
0108
FD9A
04EB
FC6D
026F
06A6
FB43
0363
072F
0571
0504
0765
FDAC
083C
00AF
05AB
FCCD
007F
03E1
05EA
FCA3
0439
04A3
0078
F8BD
FEFB
03BC
03BD
0174
FF8B
FEA9
0671
FC0E
0811
FAF0
02A8
FD3C
FDA7
FD00
F92C
F86C
0936
058B
FF8D
06C6
047E
FE49
068B
04D4
FDE7
06F6
F8EE
FF48
0214
0130
F8FE
FB18
022F
0692
080D
FAAC
FF6D
FE84
08D0
05FE
0637
FB8B
05D3
FD2C
0834
FC14
FF6A
02C0
FA98
0052
033C
FB25
FB31
FD27
0652
FED6
015C
FCF3
04D9
0019
06E0
06DA
0592
FF15
04D1
F995
0AC8
02A3
0666
0191
FB7D
0286
03C9
0684
04AB
05EB
0622
00F3
05EC
FA2A
0583
FEC7
F97C
FE3C
FE57
F88C
0482
FECD
0909
04D6
FC3D
FF48
0553
FE4F
00E9
0534
F8B6
0764
0136
0037
07A8
026B
06BC
FEDE
FE09
FD4F
0049
0096
FAB8
00C8
050F
010B
04FC
FD9D
0524
041B
07E5
FE73
F93D
0242
0753
F90A
078E
FF5A
FF4B
06D2
FA96
01BD
FDD3
FD15
03DE
0775
0572
0729
0377
0610
FB7A
02C6
03B7
FBE9
FC8D
01F5
FA2A
FC92
FC66
FE95
0047
0092
FEEF
026E
02CB
FC06
0013
FBEC
FDDE
FE8D
FFA1
0035
FED0
066C
03C7
0600
0610
0051
F9A3
FFA1
FD83
004D
FD02
01F8
0600
01F5
0259
08CC
FF0A
F8EF
0818
FB40
00B1
FDDD
0192
0836
0015
FE94
0676
FB2B
FDBB
F89C
0440
07F6
FB4F
01F8
063E
FDC2
FFFE
FC7C
FE4A
0309
FA12
FCA0
FE76
0617
0594
0174
056B
02F7
0620
00C7
0586
FEF3
FCE1
0503
06D3
FEA8
FA0C
FD88
0270
0060
004A
FC3A
0033
FE9B
0651
051D
FE66
0000
FEFE
076E
0543
005C
FB9E
FDBA
F91C
FCA5
FFB1
FD8C
FB17
F92A
FE6D
FB81
0352
FDFA
05DE
F954
019D
F890
057D
007A
012E
FC03
FBBC
F9E5
0200
FAF3
FCDA
FD80
FAC1
FA02
00AF
F7A0
FEF3
05DD
02EA
0459
FD46
0264
0090
04E2
FE36
02F4
0047
FC51
FCDE
F893
03E2
FDA7
051E
06EB
FB7F
FC60
065E
FD45
FE88
FCCD
0109
FFA3
F9BA
F9A4
FC75
F806
078D
FDC8
050E
F890
FF43
F87B
FFF9
00D1
015E
F72D
001E
022B
0028
0351
028E
FE67
F900
FB3C
FC98
FD67
0484
0602
F9DF
004A
FD03
FBA3
FC17
0265
0215
03BD
0581
F8D6
FFD2
05F3
FBAF
FE07
06B3
03DA
03A6
05D0
FCAA
01B5
0172
F9BC
F865
FF3A
000C
FE50
F968
0217
F9A8
03E3
FD92
049E
F992
063C
03F2
FB1F
F975
FBA5
F814
0359
05B2
FADD
F8B1
057D
0367
FA10
0399
F995
0703
0778
F846
046D
F81A
FDA8
FC68
FA45
FA45
0269
0027
FBAE
01B7
01BE
FE14
0022
F872
FAB6
0613
F8E6
FDEE
FBFB
026D
FF17
0372
04D8
0689
029A
FBE6
FAC4
FA73
FC78
FFEA
F95D
06AF
F9B2
FB6D
06DA
F947
0556
FDA1
00EC
FD94
FB1B
0563
F843
0757
FF2B
F8A1
0126
FDA3
FF90
0983
0202
FDCB
FF5F
030B
FF29
045F
FF57
00BD
0708
03BB
F9FF
03CF
FDB2
0055
FD83
03CD
FBBC
FD54
07E8
0164
FC74
03C9
07D0
FDE6
02F7
07F0
03EB
00D8
066C
0703
FB44
0706
FD3E
037F
026E
FA2C
0722
FCAD
FA70
005D
FF14
03AF
F922
069F
FCC0
FB64
0503
0240
0915
FAF7
0278
07B3
F922
FBC4
FA9B
06F9
0570
04FE
FF9A
07C4
057B
FB12
02A9
00FD
0460
0309
00C6
08EC
01FC
026A
023F
0273
FBEB
FE8B
FDD2
FA21
FBA7
01B2
06A1
FD06
FFE3
0740
F980
FE59
06B3
FC7B
06F1
FD45
01A8
F9CC
0593
FB93
02E6
00FD
FD15
063E
05AB
02CC
FD33
0164
FC1A
FD73
01B8
FB2D
03E5
FE67
0465
FDE6
FA91
FA26
0733
FF34
0780
FB92
03D2
02CC
FA39
0596
069C
FDFC
FEB2
03E7
0730
0610
02AF
0472
00A0
037B
F9F6
0739
FABC
FBAF
063C
FA2B
FDD7
F82B
FB3E
FC86
07FB
0742
0095
05AC
FFD5
FA0E
FE67
01A9
0531
FE9D
063B
048B
0827
07E4
FEC0
02CB
011D
FDA6
09CC
FC84
075B
F8EE
0089
0494
0617
FC23
02F8
025B
F98A
007F
05E1
F944
0726
FE7C
FBA2
07D8
FBDC
0385
02BA
018C
FB68
FF87
017E
FC1B
F90C
0061
0759
FD35
F938
F736
FC52
FE42
FC45
FF75
06EF
FC1F
0350
FB7A
056C
FDC0
036F
FA21
04A8
FBAE
F88C
00EB
FD75
0416
04B4
FB3F
02FE
F827
FAB8
036B
0196
0716
0523
FCA6
FA5D
050C
00A9
FD85
02DC
F87B
FDAC
FC08
F832
FEAE
00C4
0682
FB3A
051B
F9E3
01AD
FFA2
FD9C
FF17
FA7D
03A4
F90C
F8C1
011C
00A8
03D6
0625
017A
0258
F84E
0499
0464
FDE6
FA5C
FEFA
F99D
FC2E
F8C4
FAB1
FAA9
FC5D
F9EF
0614
FBF9
FCFC
FDAA
02C4
0002
0601
F97F
FAA5
00B8
F9AE
02B7
FB27
0242
0643
FAF8
06C2
FAF6
F950
FF1F
F7C1
04F6
F94F
FF63
06A9
05C9
FA08
FC82
FB3A
F9A0
FB20
05F2
FE3F
050B
F85D
FB08
04EE
FEAC
F84B
0571
04E9
04E4
FF38
FE21
FA00
FB98
054E
FD49
FA8D
FF84
FC74
FAC8
0523
0024
FE1A
068A
FD45
060F
0467
FB7C
FF79
FF67
06B0
01E1
F8E4
072D
018C
FBCD
05AE
FBE8
FA1B
037B
FD5E
03CF
0174
064D
0642
049B
048B
FEC9
F9D5
03D2
0029
FFE7
0527
FA25
06B6
0490
FEC3
05B3
009E
FCEF
065C
062F
0094
0376
01A1
07B7
031C
02F5
FD32
03E5
01BD
01F3
F977
FB1F
F944
0239
06B3
FCCC
0020
F94C
F89A
0702
02CE
07F3
FA79
F90F
039B
047D
FF75
0273
FA6C
06EF
066F
011C
07FD
033C
F96F
FDFD
0438
0160
07FE
FAC9
FE10
0172
060C
FCC0
06CF
00E2
FDAE
FDD7
FA3A
065B
FD78
FBDC
F9A2
044A
02B8
F8BB
04DC
0656
0188
03CA
FBF5
01C9
FA2A
FEE3
FE02
05F7
0291
0387
FE77
000F
0891
000A
FFCF
FECA
FDF9
0169
065E
FC02
0867
0116
FDDD
FB84
FF19
0501
07DD
FD16
06BA
0505
FF25
0243
045D
00C7
00A2
FA75
FE13
0342
FDC4
FDFE
0600
FF74
0406
0216
0127
03FB
0233
FA12
F68C
FF24
03C8
00AB
02D1
F988
F7CA
F8C9
FD74
FE17
06E2
0590
0163
FF16
F9AF
FE6E
FBB2
FFA0
053B
03CA
FB2D
FF01
F86E
0103
FADB
0165
F7A0
06CB
070B
F924
04E2
081D
054A
FF7A
02CA
0599
F7FC
02ED
FBA8
05F7
FFEB
FBB9
01CE
F90E
FC3B
F7E2
FEEB
F9F3
FB48
FE1B
FCE2
FC83
FB8F
F795
0634
FDCB
FAF2
056F
FBBC
FC31
FA05
01F6
04A4
F966
0602
039C
0376
016A
FBBD
008D
FEEE
0707
FB65
FA55
01A1
F808
01B1
075A
0258
FBE5
FA0B
06AA
FD2A
FABA
FFA1
F735
05E6
06B8
0443
FD8E
FED4
F99F
F9B4
0174
FE4B
0263
0691
FE26
FB69
0296
FB26
02E6
04C4
FE18
FF95
FC57
FDEE
0380
02AD
FE10
FD3B
002C
FD6D
018F
02CB
FDA2
022B
00AD
07BD
0803
FC33
024F
F910
FD6F
06FB
064E
FB8A
FB82
07FD
07F4
042B
0047
04AE
FBF8
0176
0688
FB9A
FCE1
020E
FA8A
0227
03E3
FDEB
FB27
06D2
0101
02A0
00EC
039D
F8A0
076D
FD13
FB38
FF24
02ED
03D1
FCD6
F97D
0164
030E
00FE
FDA5
00A5
FD4F
04A0
001F
FD8F
FE51
0027
04DB
FFF1
04CD
0118
FA2A
084C
FB20
0411
F846
02DC
F954
FF3B
FE12
FD5D
FD27
0141
FF4C
01F5
0079
02A8
FB6A
FAC7
02B1
0291
FEF4
FBFC
0380
FDF8
FE9F
F82D
FAEE
05AB
0253
05FB
FFB9
0015
FADF
0266
FCCB
F9B4
FD63
FE91
053A
020C
034F
F8F2
FCFC
072D
F773
FF2A
F85B
0630
00D6
F9F2
FBFF
FC4B
0191
0039
05F5
F99D
FC36
03EF
FA9B
F7AD
06C8
0162
F8B0
FEF1
F8DE
05E9
0801
FD2D
068C
018A
03D4
03F9
FF14
FC5B
07EB
0688
038A
FC25
045E
FE41
FDD1
FFED
FC41
059B
01BE
08CF
0066
FCDF
0574
011A
FC56
FFC2
0584
01F9
078C
FED0
FBD0
06A1
FC40
01AE
009F
016B
0178
005C
FF79
FF3D
FAAE
0158
FC7E
0360
FA1E
FF4B
0577
00AA
FD95
02F2
0490
FC43
FB30
065A
074D
FFA5
FC8B
FB75
0348
0366
FA65
0253
023F
FDFE
FBD1
FA17
FA31
010C
03A4
FF5B
FAE7
020A
044F
F947
FFB2
FAFF
FB14
F9F4
FFC0
F9AA
FB0E
FC6E
F96E
012C
FF4D
F8A6
FD9A
07D8
FFF7
0494
F981
F8DB
05E6
FC79
FF31
FF4B
05B3
0567
00D5
03F6
FD54
054B
06A2
F970
FF88
0827
06A4
FE7D
0833
FD41
FB4B
F89B
FFEE
059D
0546
FB9A
F8CF
FA13
F551
FA52
0399
FFE6
082C
FC4F
FE0A
FD1F
FEEF
0314
04BE
012F
F9A7
058F
079B
0410
05EC
FE53
02E5
07F3
FCAB
F877
0420
FB92
FAB9
00C1
FDBD
FDFB
F828
06B6
F925
02ED
034E
F8CB
FC35
F95D
FCDB
07EC
F93A
070C
F969
06F9
010E
0026
FA9A
FF77
04E0
05C3
0431
FEBD
FD73
04D5
0443
FF42
05AF
023C
052E
0525
03FF
05CF
06C3
0664
FF94
06F8
07DB
0574
FC18
03F1
FB8B
06FB
F841
FB18
FD88
05D2
FCDE
00FE
F8AF
04A4
F88A
FD52
FAC4
06D7
065E
011B
04FE
058A
FDD9
0140
FA0A
007B
0422
012A
067B
FAB2
F739
F80B
FBF3
F984
00D1
F894
0417
06CE
FA1E
F857
002F
0593
FE67
014F
FFCB
FD87
FA02
FA5A
FFD2
FBCB
FB13
0473
FD0D
02D2
FD81
FD8A
FFD1
FD2F
FE50
0221
054C
0796
F882
026E
06F4
05AD
05BC
FA37
FB00
FA49
0599
0594
FE75
F915
FD6F
010C
F894
F8A1
F848
0010
FFC2
0771
FA27
FB4A
FAF5
081B
0692
041D
F81E
005B
F8AE
FD9B
03F6
0679
F8EC
FC88
FDC4
0584
00EE
001E
FC09
0561
0146
F7F3
FBBD
F75F
0701
040D
FDD3
F990
0481
FA5A
0618
01A5
FEC6
FC6A
007D
FCF7
FFF7
0589
FEE5
F903
06BD
FC56
FC34
0076
FB99
FEBD
0358
FCDD
FBD4
F9C2
050E
FF96
F771
FEB9
FF31
0248
01B8
077B
0451
074C
0833
FC60
F983
02C5
08E5
0080
FA40
0623
FBED
FD9A
FD8F
06A8
FC49
FBD1
F7FE
0301
FE57
FFE8
077C
FEEC
00BB
02A3
008D
0505
01D9
0744
099D
051A
05EB
00EB
0597
FC3B
F9C7
06E8
064F
FC83
FFC0
01C7
FB92
FFE3
076C
0536
FF9B
023D
FDF8
F87B
0925
03A1
F912
FB36
FAC1
FBEB
0719
028C
04A9
FE6F
0029
FF6C
FA03
F8C2
08C5
0247
FC51
FE9C
FCC1
FF3F
03A4
FBA6
FC8A
03CA
05B1
FB5B
0642
04D0
0259
FE04
F7F9
FCCE
FA0C
0819
FFF9
045D
0571
FA51
03CC
FBAB
01EA
04E9
070E
054E
FE45
06D0
FF74
04E8
0139
07C3
FDB5
00D5
0336
FE46
F8E3
05A5
0461
01A5
FDEC
FE38
0889
000E
0375
00CD
068B
0157
F9FF
0301
FA78
F90E
FEE8
FE35
04B1
09BE
FA34
FA46
0694
032B
F860
0654
FE50
F82A
FF42
F916
FD7C
02CD
FCE1
F805
011B
02FE
FA86
F906
FFA9
F87A
F880
FE62
FB67
F78E
FE36
FEFE
00E4
FCA0
FC25
FE69
02FF
FC94
0213
FFFB
0781
049B
00A5
0326
FBDA
008E
F8F4
019C
FCBC
00B3
FBFE
FC9F
FF77
FDA6
FF24
06D4
00BF
FF0E
0632
FB2D
0475
00AF
0470
017D
066D
01B1
F815
02A3
FF8F
0104
FE11
01E0
F4A1
FC34
0073
040D
FDDB
FFD3
042A
0449
0222
FC48
F9D6
FE5D
F954
FBFC
0606
F906
FC4E
00E0
015A
FF5F
FC66
F7A0
F745
F7F0
FCF9
0292
FB33
FB8E
F861
01AE
F9BD
FB75
F7DA
0564
F953
05FD
02CA
F9C8
003D
019D
001F
F91C
FED5
F892
F9C2
005B
0729
0676
F8C0
039F
0553
FC43
008C
FB10
040D
F927
0345
059F
FA12
FE39
023E
0557
0234
03EB
FEB5
0198
F862
FC20
02B5
0298
FAA6
04AC
FEC8
FD54
F7E8
01FA
04C8
01D1
FEBD
FBB5
02A6
FC31
0494
FD6F
FEA9
FC39
FB4D
F7AE
0213
F998
0036
01F6
FD05
058D
FB83
FB45
002B
034E
0118
F836
FB6B
FFB3
FC27
FCCE
FD0F
0649
FF2F
FDE9
F88D
0170
0241
FEF6
FCF6
032F
FBFD
0289
FCF1
02AB
F85D
FE40
0722
0081
FEFA
FC5B
0147
FC9D
0096
0493
0099
05A1
