037B
FFF3
F9B6
0546
FFE3
FB16
F79D
F95F
09C0
0670
0198
0991
09F7
067C
0C47
F6C3
F6E7
0609
09C2
FD05
02BE
FD0A
0B73
0CC4
FF92
0082
F6B5
FFFA
F64D
00E0
0206
F53C
0466
06CA
FE10
FFEC
04B0
0CA0
04F8
0442
0A26
F7D8
FB20
FFE0
FE4E
FA0A
F6F2
0216
F835
015D
0903
FB4F
F9E9
041E
FFC3
0975
FAE1
F527
075E
F4AD
0684
F659
F6A5
0404
FC86
F891
0005
0B9B
0422
0B9F
04AB
0942
09A0
FCFC
FFFF
0026
0008
0ACD
F9AA
04BC
FABB
F3F5
FFEB
F91B
F42F
007A
07B8
FF0F
FB1E
02A0
F560
F9C1
001C
FA5C
FFF6
08F7
0BCF
F30D
FBBB
FFF0
08FD
068F
FFDF
FFEF
FFEF
FED0
03E1
FFFC
0887
F26C
0095
F463
09C7
FAF0
FC3E
FAFF
010F
08FE
F730
088E
083F
0B09
08C6
0BC1
F76E
0A56
063F
F2FD
