FBED
05D7
0319
07B1
02BB
FEBB
0054
002F
00FA
055F
F97A
0366
F904
0761
0918
FFE5
F97E
FA47
F8BF
F8D1
0524
FB9B
FB47
0006
0028
FD3A
0283
0280
0147
018C
0486
0045
FC71
F743
06FF
0887
0929
02FB
0490
FBF1
0294
FE31
0526
F883
F956
085D
03B8
F874
FCCA
FAEC
007B
FC00
FFF5
FB78
0614
0018
0397
00C5
0407
FD8E
FF85
FBFB
03EB
F9FF
042B
FBB0
FD1C
03CB
023F
FF46
0819
0858
02F6
00C5
0209
0468
FFAA
0552
02DB
FAC8
0347
F7CF
FE52
07B7
052D
0830
03C8
0746
FE1C
06D4
04F7
FB5D
0078
006F
FF95
006B
0623
0448
0783
F9DF
035A
FD09
F8E2
FB83
0181
04C3
FC02
FB8F
08AA
030C
FE69
F79E
FE08
01A6
FB04
05D8
0720
FE67
F848
01DC
FCB0
0065
0042
FB8B
FAD0
039D
F8EF
0486
FFFD
0192
FF81
018C
F989
001B
009A
04F0
FD4D
FE60
FD9B
FA69
FBB5
0595
F980
05E1
F8B5
FE08
0714
054C
F9FB
FD70
06FE
F99C
FBE5
F94F
FA2A
00CC
FB4C
FECF
F9A0
FA1B
FC2C
F705
07AC
F6F3
F8B8
04A3
0217
0043
0279
FB37
082F
03B1
FE83
F7D4
FF23
F98A
00C4
F8BC
F90A
FD9B
FA62
FAAC
04B3
FD32
0837
06C2
0149
FE64
05A4
F881
F845
00E9
041F
FF6E
FE9A
FC81
FD77
0593
0204
FAD4
FCB1
FCCC
0050
0840
0501
FC81
F684
FCF3
FD07
0372
FF0C
F89A
06AE
FF0B
F8D0
0092
FDB7
00F7
F786
06A3
FF12
0919
0481
FF85
FBC5
FD6B
0559
FC9B
FB6D
0675
066F
FB5E
FDC7
FD94
FFB6
0006
0273
0075
0284
FB25
0760
0048
FEA0
004E
0740
079B
007F
04BA
FD46
FD10
0914
F7CD
08C5
F977
030F
08A0
07CB
026D
FD5C
FF16
FFBE
FAD7
081F
FDCE
03B2
06FE
088F
008D
03EF
FF48
0173
FB3D
F89A
FF13
0163
FC9C
FBE4
FF07
02CD
FDE3
FE1A
FE14
FAA0
FC9E
FEFB
FA2C
06C1
FBA1
04A2
0153
F9B8
F910
022A
F86E
03F9
05DC
FE81
FC54
04C4
0357
FC1C
00BF
04E8
0668
F914
04A1
0909
F90C
0334
033B
FE07
07BC
057D
F967
FD18
FBA8
029D
022F
FEEE
FF7E
FF77
FB76
0253
0375
F89A
F7AB
0439
07BF
037B
F872
044D
FEDA
048C
0827
FB15
02A4
0554
067C
F8B8
F979
07A7
077B
084D
0198
FB00
FC1D
034B
FE49
0740
0042
05DF
F8E5
FAFF
FE90
F781
0697
F6D5
0211
FF2C
0379
02A2
FD35
023F
FCA8
F65A
05A3
0884
0634
F9C0
FC0D
FAE2
FF1F
07C1
0613
06E2
0224
015B
0680
0746
00B4
0175
FC77
F77C
05EE
